53
D4
EB
0B
1F
C9
F7
F9
01
C5
DB
FB
E3
F1
17
FE
EF
15
0F
05
F4
F1
F2
F8
FE
F6
F3
F7
FD
08
19
01
FC
FB
FA
FE
09
FD
ED
FD
08
00
01
08
06
08
0B
01
11
03
0C
FB
FD
00
08
02
FA
09
02
02
07
07
07
05
06
09
07
FD
01
0B
01
01
FE
11
0A
01
F8
0B
0D
01
FB
0B
0C
03
FD
FE
08
00
00
0A
0B
FF
FC
0E
0D
FE
01
07
05
03
F7
0B
02
02
FD
06
FE
05
03
03
FF
02
02
04
02
04
F7
05
FD
FF
F5
01
02
00
FA
02
FF
06
00
03
03
04
FF
03
FA
03
FF
08
FE
00
00
08
FC
00
F7
00
FE
01
01
FC
01
05
FC
FC
02
00
FB
FC
FA
00
FA
02
FA
00
F8
01
FD
00
FD
08
FB
F6
CD
BD
0F
F6
FB
FC
F6
FF
0A
F6
1A
06
09
E0
DB
03
0A
E9
ED
FB
0A
13
02
FC
1E
F9
13
FF
17
F3
E2
02
03
17
F8
00
0A
08
0E
01
03
09
FB
F5
FE
06
F7
F8
EF
0C
FD
FD
F8
12
03
FA
FE
F7
09
FF
01
F9
FA
01
FF
01
FB
01
0B
04
02
00
19
F4
F7
03
12
FD
F5
06
0A
07
FA
FD
04
15
07
03
00
10
08
F9
F7
FA
FF
00
F2
02
05
FF
F1
04
FC
F9
F4
FC
FD
01
03
F7
03
04
06
FB
03
05
03
FA
F9
03
02
02
02
02
02
00
01
03
FC
00
00
03
FF
FB
FD
03
FE
FD
01
FD
04
FD
FA
FC
00
FA
FA
FA
01
FC
FE
FE
FF
FC
02
FB
F6
FB
FE
01
FD
FE
FF
03
FA
F7
FE
04
F9
EB
00
0D
BF
26
32
01
DC
23
11
08
E6
1A
05
03
02
11
FE
06
FE
05
02
07
0E
1A
23
06
10
14
1E
0D
EF
0D
02
FD
D0
13
FB
F5
CE
0A
FC
FC
D7
FA
F8
FC
E0
F9
F7
FE
EF
EE
FD
FD
02
F2
EF
07
07
F7
F3
02
FB
F4
F4
FE
FB
EB
F1
FB
F8
ED
ED
02
F5
F7
F3
FB
FA
F2
F5
FD
06
E5
F1
06
FB
E3
F2
00
03
E5
EF
02
09
EC
F5
F9
04
F1
F7
FD
11
F8
F6
F7
03
FA
EF
FD
FC
FA
F6
F8
00
F5
FA
FE
08
F8
FA
FE
02
F5
FE
F7
FD
FC
00
FA
FE
F8
FC
FF
FF
F3
F9
03
02
FF
00
F9
06
FD
FB
FF
06
FE
02
02
00
FA
FE
FF
FE
FF
FE
FF
04
02
04
03
01
FF
05
00
06
FF
05
00
06
00
FD
FE
D0
15
F5
04
F0
F2
F2
FE
FE
12
F0
F9
0A
0E
06
FD
F5
E5
0A
FC
F5
DC
05
04
F5
05
00
04
00
10
EC
FE
F2
00
F9
FC
F5
FE
05
F6
F5
EA
0C
FC
09
EE
09
02
02
E2
F8
05
FF
F4
F1
02
EA
09
01
07
F4
0B
FF
02
FB
04
FF
F9
FE
02
F8
FD
03
F9
FA
FE
03
00
F5
F7
03
F7
F6
FC
FF
02
FC
FD
06
FC
F8
F9
02
FD
FA
FF
01
FC
F5
FE
03
F8
FB
FE
00
F4
FF
FD
04
FA
FF
FA
03
F7
FD
F6
07
FB
F9
01
01
F7
00
F8
05
F8
F8
04
06
FF
FC
02
03
F9
F5
03
FC
F8
F5
05
00
FE
F5
03
FA
FF
F9
09
01
FF
F9
FE
00
03
01
06
04
02
02
FE
FD
F7
FF
F9
FC
FB
F9
FC
FD
09
F7
FB
AD
17
A1
FC
B6
34
F7
06
FF
2C
24
0B
1B
0F
FE
03
11
FA
E7
00
F6
FA
D6
FE
EB
FC
DC
FC
01
D3
ED
FC
19
D6
05
0B
16
06
03
04
0D
F5
00
09
F5
F8
FF
01
F6
FF
FD
FB
F3
FC
FF
FD
F4
F6
04
FD
01
F6
01
FE
F8
F7
0C
02
F5
FE
09
F9
F4
EB
05
02
ED
EF
02
F7
E3
F2
06
F7
F4
E9
FB
FE
F1
F0
F5
FF
FB
FA
FD
09
FE
FA
FB
06
FD
FB
FB
04
F0
02
04
F7
F0
FF
06
FA
F3
03
07
EB
FA
FF
05
F7
08
04
04
F2
0A
07
05
F7
02
00
06
FB
05
F8
FF
F1
02
FC
FA
EE
05
F6
F9
E9
03
F8
FD
F3
00
F9
FD
F2
05
FD
03
FB
FA
FC
FB
FF
01
FC
F9
FE
04
FC
01
F8
FD
F6
FE
00
